{
  "version": "1.0",
  "truncation": null,
  "padding": null,
  "added_tokens": [],
  "normalizer": null,
  "pre_tokenizer": {
    "type": "ByteLevel",
    "add_prefix_space": false,
    "trim_offsets": true,
    "use_regex": true
  },
  "post_processor": null,
  "decoder": {
    "type": "ByteLevel",
    "add_prefix_space": true,
    "trim_offsets": true,
    "use_regex": true
  },
  "model": {
    "type": "BPE",
    "dropout": null,
    "unk_token": null,
    "continuing_subword_prefix": null,
    "end_of_word_suffix": null,
    "fuse_unk": false,
    "byte_fallback": false,
    "ignore_merges": false,
    "vocab": {
      "!": 0,
      "\"": 1,
      "#": 2,
      "$": 3,
      "%": 4,
      "&": 5,
      "'": 6,
      "(": 7,
      ")": 8,
      "*": 9,
      "+": 10,
      ",": 11,
      "-": 12,
      ".": 13,
      "/": 14,
      "0": 15,
      "1": 16,
      "2": 17,
      "3": 18,
      "4": 19,
      "5": 20,
      "6": 21,
      "7": 22,
      "8": 23,
      "9": 24,
      ":": 25,
      ";": 26,
      "<": 27,
      "=": 28,
      ">": 29,
      "?": 30,
      "@": 31,
      "A": 32,
      "B": 33,
      "C": 34,
      "D": 35,
      "E": 36,
      "F": 37,
      "G": 38,
      "H": 39,
      "I": 40,
      "J": 41,
      "K": 42,
      "L": 43,
      "M": 44,
      "N": 45,
      "O": 46,
      "P": 47,
      "Q": 48,
      "R": 49,
      "S": 50,
      "T": 51,
      "U": 52,
      "V": 53,
      "W": 54,
      "X": 55,
      "Y": 56,
      "Z": 57,
      "[": 58,
      "\\": 59,
      "]": 60,
      "^": 61,
      "_": 62,
      "`": 63,
      "a": 64,
      "b": 65,
      "c": 66,
      "d": 67,
      "e": 68,
      "f": 69,
      "g": 70,
      "h": 71,
      "i": 72,
      "j": 73,
      "k": 74,
      "l": 75,
      "m": 76,
      "n": 77,
      "o": 78,
      "p": 79,
      "q": 80,
      "r": 81,
      "s": 82,
      "t": 83,
      "u": 84,
      "v": 85,
      "w": 86,
      "x": 87,
      "y": 88,
      "z": 89,
      "{": 90,
      "|": 91,
      "}": 92,
      "~": 93,
      "¡": 94,
      "¢": 95,
      "£": 96,
      "¤": 97,
      "¥": 98,
      "¦": 99,
      "§": 100,
      "¨": 101,
      "©": 102,
      "ª": 103,
      "«": 104,
      "¬": 105,
      "®": 106,
      "¯": 107,
      "°": 108,
      "±": 109,
      "²": 110,
      "³": 111,
      "´": 112,
      "µ": 113,
      "¶": 114,
      "·": 115,
      "¸": 116,
      "¹": 117,
      "º": 118,
      "»": 119,
      "¼": 120,
      "½": 121,
      "¾": 122,
      "¿": 123,
      "À": 124,
      "Á": 125,
      "Â": 126,
      "Ã": 127,
      "Ä": 128,
      "Å": 129,
      "Æ": 130,
      "Ç": 131,
      "È": 132,
      "É": 133,
      "Ê": 134,
      "Ë": 135,
      "Ì": 136,
      "Í": 137,
      "Î": 138,
      "Ï": 139,
      "Ð": 140,
      "Ñ": 141,
      "Ò": 142,
      "Ó": 143,
      "Ô": 144,
      "Õ": 145,
      "Ö": 146,
      "×": 147,
      "Ø": 148,
      "Ù": 149,
      "Ú": 150,
      "Û": 151,
      "Ü": 152,
      "Ý": 153,
      "Þ": 154,
      "ß": 155,
      "à": 156,
      "á": 157,
      "â": 158,
      "ã": 159,
      "ä": 160,
      "å": 161,
      "æ": 162,
      "ç": 163,
      "è": 164,
      "é": 165,
      "ê": 166,
      "ë": 167,
      "ì": 168,
      "í": 169,
      "î": 170,
      "ï": 171,
      "ð": 172,
      "ñ": 173,
      "ò": 174,
      "ó": 175,
      "ô": 176,
      "õ": 177,
      "ö": 178,
      "÷": 179,
      "ø": 180,
      "ù": 181,
      "ú": 182,
      "û": 183,
      "ü": 184,
      "ý": 185,
      "þ": 186,
      "ÿ": 187,
      "Ā": 188,
      "ā": 189,
      "Ă": 190,
      "ă": 191,
      "Ą": 192,
      "ą": 193,
      "Ć": 194,
      "ć": 195,
      "Ĉ": 196,
      "ĉ": 197,
      "Ċ": 198,
      "ċ": 199,
      "Č": 200,
      "č": 201,
      "Ď": 202,
      "ď": 203,
      "Đ": 204,
      "đ": 205,
      "Ē": 206,
      "ē": 207,
      "Ĕ": 208,
      "ĕ": 209,
      "Ė": 210,
      "ė": 211,
      "Ę": 212,
      "ę": 213,
      "Ě": 214,
      "ě": 215,
      "Ĝ": 216,
      "ĝ": 217,
      "Ğ": 218,
      "ğ": 219,
      "Ġ": 220,
      "ġ": 221,
      "Ģ": 222,
      "ģ": 223,
      "Ĥ": 224,
      "ĥ": 225,
      "Ħ": 226,
      "ħ": 227,
      "Ĩ": 228,
      "ĩ": 229,
      "Ī": 230,
      "ī": 231,
      "Ĭ": 232,
      "ĭ": 233,
      "Į": 234,
      "į": 235,
      "İ": 236,
      "ı": 237,
      "Ĳ": 238,
      "ĳ": 239,
      "Ĵ": 240,
      "ĵ": 241,
      "Ķ": 242,
      "ķ": 243,
      "ĸ": 244,
      "Ĺ": 245,
      "ĺ": 246,
      "Ļ": 247,
      "ļ": 248,
      "Ľ": 249,
      "ľ": 250,
      "Ŀ": 251,
      "ŀ": 252,
      "Ł": 253,
      "ł": 254,
      "Ń": 255,
      "he": 256,
      "Ġt": 257,
      "Ġa": 258,
      "Ġs": 259,
      "Ġw": 260,
      "Ġthe": 261,
      "nd": 262,
      "ed": 263,
      "Ġand": 264,
      "in": 265,
      "Ġb": 266,
      "Ġto": 267,
      "Ġwa": 268,
      "Ġh": 269,
      "re": 270,
      "Ġf": 271,
      "it": 272,
      "ou": 273,
      "er": 274,
      "Ġl": 275,
      "Ġc": 276,
      "Ġwas": 277,
      "Ġhe": 278,
      "Ġd": 279,
      "Ġm": 280,
      "Ġp": 281,
      "Ġo": 282,
      "ing": 283,
      "ar": 284,
      "om": 285,
      "The": 286,
      "ay": 287,
      "Ġg": 288,
      "or": 289,
      "is": 290,
      "en": 291,
      "ll": 292,
      "id": 293,
      "at": 294,
      "Ġha": 295,
      "ne": 296,
      "Ġsa": 297,
      "ĠS": 298,
      "le": 299,
      "im": 300,
      "ĠThe": 301,
      "an": 302,
      "Ġit": 303,
      "Ġth": 304,
      "st": 305,
      "ĠH": 306,
      "et": 307,
      "ver": 308,
      "on": 309,
      "ĠHe": 310,
      "Ġher": 311,
      "il": 312,
      "ir": 313,
      "Ġin": 314,
      "Ġn": 315,
      "Ġe": 316,
      "ot": 317,
      "ĠShe": 318,
      "ck": 319,
      "ow": 320,
      "Ġbe": 321,
      "ld": 322,
      "Ġu": 323,
      "ut": 324,
      "ce": 325,
      "Ġst": 326,
      "Ġshe": 327,
      "ig": 328,
      "Ġso": 329,
      "oo": 330,
      "Ġr": 331,
      "ke": 332,
      "ve": 333,
      "pp": 334,
      "Ġsaid": 335,
      "Ġof": 336,
      "am": 337,
      "very": 338,
      "Ġy": 339,
      "ith": 340,
      "ked": 341,
      "ĠThey": 342,
      "ĠI": 343,
      "Ġwith": 344,
      "Ġ\"": 345,
      "ri": 346,
      "Ġhis": 347,
      "nt": 348,
      "Ġday": 349,
      "ad": 350,
      "Ġpl": 351,
      "Ġhad": 352,
      "Ġup": 353,
      "Ġthat": 354,
      "ory": 355,
      "Ġyou": 356,
      "ould": 357,
      "el": 358,
      "es": 359,
      "itt": 360,
      "ent": 361,
      "Ġwe": 362,
      "Ġon": 363,
      "<|": 364,
      "|>": 365,
      "story": 366,
      "Ġfor": 367,
      "Ġplay": 368,
      "un": 369,
      "ĠT": 370,
      "Ġthey": 371,
      "ily": 372,
      "ch": 373,
      "Ġhapp": 374,
      "ittle": 375,
      "her": 376,
      "out": 377,
      "ound": 378,
      "Ġlittle": 379,
      "Ġli": 380,
      "all": 381,
      "ly": 382,
      "Ġvery": 383,
      "Ġsh": 384,
      "Ġwant": 385,
      "Ġthere": 386,
      "'s": 387,
      "ĠL": 388,
      "Ġtim": 389,
      "Ġsm": 390,
      "ht": 391,
      "Ġtime": 392,
      "end": 393,
      "ĠB": 394,
      "Ġne": 395,
      "ĠĊ": 396,
      "al": 397,
      "ome": 398,
      "Ġwh": 399,
      "ack": 400,
      "Ġre": 401,
      "Ġmom": 402,
      "se": 403,
      "Ġbig": 404,
      "Ġk": 405,
      "Ġdo": 406,
      "my": 407,
      "Ġhappy": 408,
      "ake": 409,
      "riend": 410,
      "Ġan": 411,
      "Ġfriend": 412,
      "On": 413,
      "ĠIt": 414,
      "Ġbut": 415,
      "Ġloo": 416,
      "ec": 417,
      "Once": 418,
      "Ġas": 419,
      "Ġnot": 420,
      "ra": 421,
      "Ġsaw": 422,
      "ug": 423,
      "ter": 424,
      "Ġbo": 425,
      "One": 426,
      "ore": 427,
      "Ġwere": 428,
      "ĠM": 429,
      "irl": 430,
      "ĠJ": 431,
      "Ġgirl": 432,
      "ry": 433,
      "ide": 434,
      "ved": 435,
      "'t": 436,
      "Ġsp": 437,
      "Ġgo": 438,
      "Ġse": 439,
      "Ġex": 440,
      "Ġwanted": 441,
      "ill": 442,
      "Ġhim": 443,
      "Ġj": 444,
      "fu": 445,
      ".\"": 446,
      "Ġis": 447,
      "Ġout": 448,
      "Ġupon": 449,
      "ard": 450,
      "Ġtoo": 451,
      "Ġlo": 452,
      "way": 453,
      "ĠLily": 454,
      "!\"": 455,
      "Ġar": 456,
      "Ġcould": 457,
      "hing": 458,
      "ĠA": 459,
      "ain": 460,
      "Ġall": 461,
      "ind": 462,
      "hen": 463,
      "ur": 464,
      "ic": 465,
      "Ġat": 466,
      "art": 467,
      "hed": 468,
      "ful": 469,
      "Ġthem": 470,
      "Ġwent": 471,
      "ight": 472,
      "um": 473,
      "Ġfriends": 474,
      "ĠTim": 475,
      "rom": 476,
      "ood": 477,
      "Ġhave": 478,
      "Ġaround": 479,
      "Ġhel": 480,
      "iled": 481,
      "Ġback": 482,
      "omet": 483,
      "ame": 484,
      "Ġcl": 485,
      "Ġtheir": 486,
      "are": 487,
      "ss": 488,
      "Ġdid": 489,
      "oug": 490,
      "Ġfun": 491,
      "Ġare": 492,
      "Ã¢": 493,
      "âĤ": 494,
      "Ġhelp": 495,
      "âĤ¬": 496,
      "Ġsmiled": 497,
      "Ġlooked": 498,
      "Ġfe": 499,
      "ark": 500,
      "ure": 501,
      "Ġboy": 502,
      "Ġcan": 503,
      "Ġwould": 504,
      "Ġlike": 505,
      "ick": 506,
      "Ġsomet": 507,
      "one": 508,
      "ice": 509,
      "Ġle": 510,
      "Ġstart": 511,
      "Ġal": 512,
      "ong": 513,
      "elt": 514,
      "Ġman": 515,
      "ited": 516,
      "get": 517,
      "ro": 518,
      "Ġno": 519,
      "side": 520,
      "Ġfelt": 521,
      "ĠBen": 522,
      "Ġexc": 523,
      "Ġsomething": 524,
      "amed": 525,
      "Ġasked": 526,
      "?\"": 527,
      "ĠE": 528,
      "Ġsee": 529,
      "Ġro": 530,
      "ree": 531,
      "Ġbir": 532,
      "dd": 533,
      "Ġstarted": 534,
      "Ġfa": 535,
      "ade": 536,
      "ĠOne": 537,
      "Ġme": 538,
      "Ġag": 539,
      "Ġsc": 540,
      "gether": 541,
      "Ġsome": 542,
      "Ġloved": 543,
      "king": 544,
      "ag": 545,
      "ie": 546,
      "Ġsay": 547,
      "Ġaway": 548,
      "Ġnamed": 549,
      "Ġwor": 550,
      "Ġbird": 551,
      "ĠW": 552,
      "op": 553,
      "own": 554,
      "ble": 555,
      "ings": 556,
      "Ġexcited": 557,
      "Ġmake": 558,
      "pped": 559,
      "oud": 560,
      "Ġtogether": 561,
      "Ġran": 562,
      "ĠTom": 563,
      "You": 564,
      "Ġmade": 565,
      "Ġwhat": 566,
      "Ġco": 567,
      "Ġthen": 568,
      "ave": 569,
      "if": 570,
      "Ġdec": 571,
      "ep": 572,
      "Ġch": 573,
      "ther": 574,
      "as": 575,
      "Ġtoy": 576,
      "Ġhome": 577,
      "Ġmu": 578,
      "Ġother": 579,
      "Ġbr": 580,
      "Ġfrom": 581,
      "ared": 582,
      "Ġagain": 583,
      "ue": 584,
      "Ġfound": 585,
      "Ġwho": 586,
      "ally": 587,
      "ous": 588,
      "Ġla": 589,
      "Ġevery": 590,
      "ell": 591,
      "Ġput": 592,
      ",\"": 593,
      "pl": 594,
      "Ġfl": 595,
      "Ġone": 596,
      "ided": 597,
      "Ġsad": 598,
      "Ġwhen": 599,
      "Ġcar": 600,
      "Ġdecided": 601,
      "ĠBut": 602,
      "ought": 603,
      "Ġnew": 604,
      "Ġget": 605,
      "Ġv": 606,
      "Ġwal": 607,
      "Ġplaying": 608,
      "Ġpr": 609,
      "Ġbl": 610,
      "ile": 611,
      "Ġhug": 612,
      "Ġthan": 613,
      "Ġgood": 614,
      "Ġfeel": 615,
      "ach": 616,
      "hat": 617,
      "Ġthings": 618,
      "Ġpark": 619,
      "ouse": 620,
      "eci": 621,
      "Ġtake": 622,
      "bb": 623,
      "Ġold": 624,
      "ĠD": 625,
      "Ġgot": 626,
      "udd": 627,
      "Ġdown": 628,
      "ust": 629,
      "Ġbu": 630,
      "Ġsays": 631,
      "ecial": 632,
      "Ġspecial": 633,
      "our": 634,
      "ried": 635,
      "ara": 636,
      "ĠTimmy": 637,
      "nder": 638,
      "ĠEvery": 639,
      "qu": 640,
      "Ġliked": 641,
      "Ġlot": 642,
      "Ġab": 643,
      "Ġcare": 644,
      "ways": 645,
      "udden": 646,
      "ite": 647,
      "Ġcame": 648,
      "Ġbec": 649,
      "ĠYou": 650,
      "Ġkn": 651,
      "Ġint": 652,
      "Ġalways": 653,
      "ap": 654,
      "Ġkne": 655,
      "Ġke": 656,
      "Ġfind": 657,
      "ched": 658,
      "ny": 659,
      "uddenly": 660,
      "Ġabout": 661,
      "Ġgr": 662,
      "Ġlook": 663,
      "Ġthought": 664,
      "fe": 665,
      "ened": 666,
      "Ġho": 667,
      "Ġtree": 668,
      "ĠJo": 669,
      "ge": 670,
      "ook": 671,
      "ers": 672,
      "Ġtook": 673,
      "Ġsk": 674,
      "Ġmy": 675,
      "Ġgra": 676,
      "ist": 677,
      "lly": 678,
      "Ġscared": 679,
      "ise": 680,
      "Ġmore": 681,
      "Ġsw": 682,
      "ĠJack": 683,
      "Ġpo": 684,
      "Ġdad": 685,
      "Ġlaug": 686,
      "fter": 687,
      "Ġmo": 688,
      "Lily": 689,
      "Ġta": 690,
      "ace": 691,
      "Ġknew": 692,
      "uck": 693,
      "Ġyour": 694,
      "Ġtw": 695,
      "ant": 696,
      "Ġexpl": 697,
      "Ġpe": 698,
      "ive": 699,
      "Ġdog": 700,
      "Ġmuch": 701,
      "ĠF": 702,
      "Ġstr": 703,
      "Ġsun": 704,
      "Ġoutside": 705,
      "Ġdidn": 706,
      "Ġcat": 707,
      "na": 708,
      "Ġen": 709,
      "ret": 710,
      "reat": 711,
      "ish": 712,
      "hn": 713,
      "ven": 714,
      "vent": 715,
      "cy": 716,
      "Ġinto": 717,
      "ned": 718,
      "Ġnever": 719,
      "Ġwater": 720,
      "ma": 721,
      "Ġball": 722,
      "They": 723,
      "Ġany": 724,
      "ĠMom": 725,
      "Ġtr": 726,
      "Ġhow": 727,
      "Ġfo": 728,
      "Ġsmall": 729,
      "Ġthis": 730,
      "ĠSo": 731,
      "ged": 732,
      "Ġproud": 733,
      "Ġcouldn": 734,
      "Ġknow": 735,
      "Ġad": 736,
      "nna": 737,
      "Ġhouse": 738,
      "Ġover": 739,
      "pt": 740,
      "Ġclo": 741,
      "ion": 742,
      "ĠSara": 743,
      "Ġwill": 744,
      "Ġshow": 745,
      "us": 746,
      "But": 747,
      "Ġrun": 748,
      "Ġlear": 749,
      "Ġop": 750,
      "here": 751,
      "by": 752,
      "Ġjust": 753,
      "Ġoff": 754,
      "Ġbea": 755,
      "Ġif": 756,
      "Ġra": 757,
      "Ġcall": 758,
      "ump": 759,
      "ough": 760,
      "Ġgave": 761,
      "ning": 762,
      "Ġca": 763,
      "Ġunt": 764,
      "Ġwat": 765,
      "Ġheard": 766,
      "ars": 767,
      "ort": 768,
      "Ġlong": 769,
      "Ġtold": 770,
      "Ġqu": 771,
      "ild": 772,
      "Ġbeaut": 773,
      "Ġuntil": 774,
      "Åĵ": 775,
      "Ġinside": 776,
      "Ġpick": 777,
      "ving": 778,
      "urp": 779,
      "Ġte": 780,
      "Ġcom": 781,
      "ank": 782,
      "oth": 783,
      "Ġthanked": 784,
      "Ġeach": 785,
      "ucy": 786,
      "ĠSam": 787,
      "Ġsky": 788,
      "ber": 789,
      "dy": 790,
      "ĠÃ¢": 791,
      "Ġor": 792,
      "iful": 793,
      "Ġsl": 794,
      "etter": 795,
      "Ġtoys": 796,
      "Ġbear": 797,
      "Ġbest": 798,
      "Ġbeautiful": 799,
      "ia": 800,
      "Ġwo": 801,
      "ink": 802,
      "Ġlots": 803,
      "Ġhand": 804,
      "au": 805,
      "Ġgard": 806,
      "ate": 807,
      "ady": 808,
      "Ġroom": 809,
      "Ġgarden": 810,
      "sel": 811,
      "ine": 812,
      "Ġeat": 813,
      "ob": 814,
      "oy": 815,
      "Ġnice": 816,
      "Ġplayed": 817,
      "Ġmany": 818,
      "ax": 819,
      "Ġdre": 820,
      "em": 821,
      "Ġtwo": 822,
      "Ġway": 823,
      "Ġflow": 824,
      "Ġcalled": 825,
      "other": 826,
      "ct": 827,
      "orry": 828,
      "Ġtried": 829,
      "Ġfast": 830,
      "ause": 831,
      "Ġneed": 832,
      "Ġby": 833,
      "Ġeven": 834,
      "Ġhugged": 835,
      "Ġadvent": 836,
      "Ġbra": 837,
      "Ġfam": 838,
      "Ġsmile": 839,
      "Ġend": 840,
      "ane": 841,
      "Ġpret": 842,
      "ess": 843,
      "imal": 844,
      "Ġanimal": 845,
      "ĠAnd": 846,
      "âĤ¬â": 847,
      "ty": 848,
      "Ġjump": 849,
      "Ġlaughed": 850,
      "Ġbecause": 851,
      "sed": 852,
      "Ġtry": 853,
      "Ġcu": 854,
      "Ġbox": 855,
      "Ġgl": 856,
      "When": 857,
      "Ġbetter": 858,
      "Mom": 859,
      "ull": 860,
      "Ġstay": 861,
      "self": 862,
      "iz": 863,
      "Ġdon": 864,
      "lew": 865,
      "Ġsorry": 866,
      "ary": 867,
      "Ġlived": 868,
      "Ġmommy": 869,
      "urpr": 870,
      "Ġadventure": 871,
      "Ġsurpr": 872,
      "fore": 873,
      "ĠC": 874,
      "Ġfamily": 875,
      "Ġim": 876,
      "Ġcol": 877,
      "Ġsoon": 878,
      "Ġrem": 879,
      "ect": 880,
      "ĠAnna": 881,
      "Ġcareful": 882,
      "He": 883,
      "ĠLucy": 884,
      "olly": 885,
      "ĠHis": 886,
      "Ġbrave": 887,
      "Ġfin": 888,
      "ĠThen": 889,
      "It": 890,
      "Ħ¢": 891,
      "Ġcome": 892,
      "ummy": 893,
      "Ġkept": 894,
      "âĤ¬âĦ¢": 895,
      "ft": 896,
      "oon": 897,
      "Ġhard": 898,
      "Ġcle": 899,
      "Ġbefore": 900,
      "Ġche": 901,
      "Ġkind": 902,
      "Ġexplore": 903,
      "and": 904,
      "led": 905,
      "Ġwar": 906,
      "ĠHer": 907,
      "Ġstill": 908,
      "ĠWe": 909,
      "iny": 910,
      "Ġfeeling": 911,
      "iced": 912,
      "Ġits": 913,
      "Ġboth": 914,
      "Ġfly": 915,
      "bbit": 916,
      "Let": 917,
      "Tom": 918,
      "Ġflew": 919,
      "Ġever": 920,
      "ople": 921,
      "ised": 922,
      "'m": 923,
      "Ġfi": 924,
      "ĠMia": 925,
      "xt": 926,
      "ĠJohn": 927,
      "igh": 928,
      "Ġplace": 929,
      "Ġrabbit": 930,
      "Ġwind": 931,
      "Ġnow": 932,
      "Ġlove": 933,
      "urt": 934,
      "Ġfar": 935,
      "Ġfore": 936,
      "Ġlet": 937,
      "Ġloud": 938,
      "maz": 939,
      "Ġamaz": 940,
      "Ġye": 941,
      "ĠMax": 942,
      "thing": 943,
      "ished": 944,
      "gry": 945,
      "Ġey": 946,
      "Ġunder": 947,
      "Ġpeople": 948,
      "Ġwonder": 949,
      "Ġanimals": 950,
      "Th": 951,
      "Ġfr": 952,
      "Ġfish": 953,
      "Ġde": 954,
      "Ġlearned": 955,
      "ies": 956,
      "Ġcon": 957,
      "Ġsto": 958,
      "ool": 959,
      "Ġboat": 960,
      "Ġwalked": 961,
      "Yes": 962,
      "Ġlist": 963,
      "ĠWhen": 964,
      "Ġeveryone": 965,
      "ĠFrom": 966,
      "wn": 967,
      "Ġnoticed": 968,
      "age": 969,
      "Ġquick": 970,
      "ious": 971,
      "Jo": 972,
      "Ġdis": 973,
      "Ġpa": 974,
      "Ġred": 975,
      "ip": 976,
      "Ġun": 977,
      "ger": 978,
      "gan": 979,
      "Ġgoing": 980,
      "Ġopened": 981,
      "joy": 982,
      "ĠG": 983,
      "Ġdoll": 984,
      "ock": 985,
      "Ġgive": 986,
      "Ġsafe": 987,
      "hes": 988,
      "Ġsu": 989,
      "ĠSuddenly": 990,
      "ange": 991,
      "Ġwalking": 992,
      "Ġblue": 993,
      "Ġeyes": 994,
      "So": 995,
      "sh": 996,
      "Ġdel": 997,
      "Ġthr": 998,
      "Ġquickly": 999,
      "ase": 1000,
      "Ġtre": 1001,
      "Ġbed": 1002,
      "Ġnext": 1003,
      "Ġcry": 1004,
      "isy": 1005,
      "Ġstrong": 1006,
      "Ġremem": 1007,
      "Ġide": 1008,
      "Ġshould": 1009,
      "Ġvo": 1010,
      "Ġground": 1011,
      "Ġdif": 1012,
      "Ġenjoy": 1013,
      "Ġstopped": 1014,
      "ser": 1015,
      "ĠP": 1016,
      "Ġdan": 1017,
      "That": 1018,
      "Ġnear": 1019,
      "Ġleave": 1020,
      "No": 1021,
      "Ġgreat": 1022,
      "Ġthree": 1023
    },
    "merges": [
      [
        "h",
        "e"
      ],
      [
        "Ġ",
        "t"
      ],
      [
        "Ġ",
        "a"
      ],
      [
        "Ġ",
        "s"
      ],
      [
        "Ġ",
        "w"
      ],
      [
        "Ġt",
        "he"
      ],
      [
        "n",
        "d"
      ],
      [
        "e",
        "d"
      ],
      [
        "Ġa",
        "nd"
      ],
      [
        "i",
        "n"
      ],
      [
        "Ġ",
        "b"
      ],
      [
        "Ġt",
        "o"
      ],
      [
        "Ġw",
        "a"
      ],
      [
        "Ġ",
        "h"
      ],
      [
        "r",
        "e"
      ],
      [
        "Ġ",
        "f"
      ],
      [
        "i",
        "t"
      ],
      [
        "o",
        "u"
      ],
      [
        "e",
        "r"
      ],
      [
        "Ġ",
        "l"
      ],
      [
        "Ġ",
        "c"
      ],
      [
        "Ġwa",
        "s"
      ],
      [
        "Ġ",
        "he"
      ],
      [
        "Ġ",
        "d"
      ],
      [
        "Ġ",
        "m"
      ],
      [
        "Ġ",
        "p"
      ],
      [
        "Ġ",
        "o"
      ],
      [
        "in",
        "g"
      ],
      [
        "a",
        "r"
      ],
      [
        "o",
        "m"
      ],
      [
        "T",
        "he"
      ],
      [
        "a",
        "y"
      ],
      [
        "Ġ",
        "g"
      ],
      [
        "o",
        "r"
      ],
      [
        "i",
        "s"
      ],
      [
        "e",
        "n"
      ],
      [
        "l",
        "l"
      ],
      [
        "i",
        "d"
      ],
      [
        "a",
        "t"
      ],
      [
        "Ġh",
        "a"
      ],
      [
        "n",
        "e"
      ],
      [
        "Ġs",
        "a"
      ],
      [
        "Ġ",
        "S"
      ],
      [
        "l",
        "e"
      ],
      [
        "i",
        "m"
      ],
      [
        "Ġ",
        "The"
      ],
      [
        "a",
        "n"
      ],
      [
        "Ġ",
        "it"
      ],
      [
        "Ġt",
        "h"
      ],
      [
        "s",
        "t"
      ],
      [
        "Ġ",
        "H"
      ],
      [
        "e",
        "t"
      ],
      [
        "v",
        "er"
      ],
      [
        "o",
        "n"
      ],
      [
        "ĠH",
        "e"
      ],
      [
        "Ġhe",
        "r"
      ],
      [
        "i",
        "l"
      ],
      [
        "i",
        "r"
      ],
      [
        "Ġ",
        "in"
      ],
      [
        "Ġ",
        "n"
      ],
      [
        "Ġ",
        "e"
      ],
      [
        "o",
        "t"
      ],
      [
        "ĠS",
        "he"
      ],
      [
        "c",
        "k"
      ],
      [
        "o",
        "w"
      ],
      [
        "Ġb",
        "e"
      ],
      [
        "l",
        "d"
      ],
      [
        "Ġ",
        "u"
      ],
      [
        "u",
        "t"
      ],
      [
        "c",
        "e"
      ],
      [
        "Ġs",
        "t"
      ],
      [
        "Ġs",
        "he"
      ],
      [
        "i",
        "g"
      ],
      [
        "Ġs",
        "o"
      ],
      [
        "o",
        "o"
      ],
      [
        "Ġ",
        "r"
      ],
      [
        "k",
        "e"
      ],
      [
        "v",
        "e"
      ],
      [
        "p",
        "p"
      ],
      [
        "Ġsa",
        "id"
      ],
      [
        "Ġo",
        "f"
      ],
      [
        "a",
        "m"
      ],
      [
        "ver",
        "y"
      ],
      [
        "Ġ",
        "y"
      ],
      [
        "it",
        "h"
      ],
      [
        "k",
        "ed"
      ],
      [
        "ĠThe",
        "y"
      ],
      [
        "Ġ",
        "I"
      ],
      [
        "Ġw",
        "ith"
      ],
      [
        "Ġ",
        "\""
      ],
      [
        "r",
        "i"
      ],
      [
        "Ġh",
        "is"
      ],
      [
        "n",
        "t"
      ],
      [
        "Ġd",
        "ay"
      ],
      [
        "a",
        "d"
      ],
      [
        "Ġp",
        "l"
      ],
      [
        "Ġha",
        "d"
      ],
      [
        "Ġu",
        "p"
      ],
      [
        "Ġth",
        "at"
      ],
      [
        "or",
        "y"
      ],
      [
        "Ġy",
        "ou"
      ],
      [
        "ou",
        "ld"
      ],
      [
        "e",
        "l"
      ],
      [
        "e",
        "s"
      ],
      [
        "it",
        "t"
      ],
      [
        "en",
        "t"
      ],
      [
        "Ġw",
        "e"
      ],
      [
        "Ġo",
        "n"
      ],
      [
        "<",
        "|"
      ],
      [
        "|",
        ">"
      ],
      [
        "st",
        "ory"
      ],
      [
        "Ġf",
        "or"
      ],
      [
        "Ġpl",
        "ay"
      ],
      [
        "u",
        "n"
      ],
      [
        "Ġ",
        "T"
      ],
      [
        "Ġthe",
        "y"
      ],
      [
        "il",
        "y"
      ],
      [
        "c",
        "h"
      ],
      [
        "Ġha",
        "pp"
      ],
      [
        "itt",
        "le"
      ],
      [
        "he",
        "r"
      ],
      [
        "ou",
        "t"
      ],
      [
        "ou",
        "nd"
      ],
      [
        "Ġl",
        "ittle"
      ],
      [
        "Ġl",
        "i"
      ],
      [
        "a",
        "ll"
      ],
      [
        "l",
        "y"
      ],
      [
        "Ġ",
        "very"
      ],
      [
        "Ġs",
        "h"
      ],
      [
        "Ġwa",
        "nt"
      ],
      [
        "Ġthe",
        "re"
      ],
      [
        "'",
        "s"
      ],
      [
        "Ġ",
        "L"
      ],
      [
        "Ġt",
        "im"
      ],
      [
        "Ġs",
        "m"
      ],
      [
        "h",
        "t"
      ],
      [
        "Ġtim",
        "e"
      ],
      [
        "e",
        "nd"
      ],
      [
        "Ġ",
        "B"
      ],
      [
        "Ġ",
        "ne"
      ],
      [
        "Ġ",
        "Ċ"
      ],
      [
        "a",
        "l"
      ],
      [
        "om",
        "e"
      ],
      [
        "Ġw",
        "h"
      ],
      [
        "a",
        "ck"
      ],
      [
        "Ġ",
        "re"
      ],
      [
        "Ġm",
        "om"
      ],
      [
        "s",
        "e"
      ],
      [
        "Ġb",
        "ig"
      ],
      [
        "Ġ",
        "k"
      ],
      [
        "Ġd",
        "o"
      ],
      [
        "m",
        "y"
      ],
      [
        "Ġhapp",
        "y"
      ],
      [
        "a",
        "ke"
      ],
      [
        "ri",
        "end"
      ],
      [
        "Ġa",
        "n"
      ],
      [
        "Ġf",
        "riend"
      ],
      [
        "O",
        "n"
      ],
      [
        "ĠI",
        "t"
      ],
      [
        "Ġb",
        "ut"
      ],
      [
        "Ġl",
        "oo"
      ],
      [
        "e",
        "c"
      ],
      [
        "On",
        "ce"
      ],
      [
        "Ġa",
        "s"
      ],
      [
        "Ġn",
        "ot"
      ],
      [
        "r",
        "a"
      ],
      [
        "Ġsa",
        "w"
      ],
      [
        "u",
        "g"
      ],
      [
        "t",
        "er"
      ],
      [
        "Ġb",
        "o"
      ],
      [
        "O",
        "ne"
      ],
      [
        "o",
        "re"
      ],
      [
        "Ġwe",
        "re"
      ],
      [
        "Ġ",
        "M"
      ],
      [
        "ir",
        "l"
      ],
      [
        "Ġ",
        "J"
      ],
      [
        "Ġg",
        "irl"
      ],
      [
        "r",
        "y"
      ],
      [
        "id",
        "e"
      ],
      [
        "v",
        "ed"
      ],
      [
        "'",
        "t"
      ],
      [
        "Ġs",
        "p"
      ],
      [
        "Ġg",
        "o"
      ],
      [
        "Ġs",
        "e"
      ],
      [
        "Ġe",
        "x"
      ],
      [
        "Ġwant",
        "ed"
      ],
      [
        "i",
        "ll"
      ],
      [
        "Ġh",
        "im"
      ],
      [
        "Ġ",
        "j"
      ],
      [
        "f",
        "u"
      ],
      [
        ".",
        "\""
      ],
      [
        "Ġ",
        "is"
      ],
      [
        "Ġ",
        "out"
      ],
      [
        "Ġup",
        "on"
      ],
      [
        "ar",
        "d"
      ],
      [
        "Ġto",
        "o"
      ],
      [
        "Ġl",
        "o"
      ],
      [
        "w",
        "ay"
      ],
      [
        "ĠL",
        "ily"
      ],
      [
        "!",
        "\""
      ],
      [
        "Ġa",
        "r"
      ],
      [
        "Ġc",
        "ould"
      ],
      [
        "h",
        "ing"
      ],
      [
        "Ġ",
        "A"
      ],
      [
        "a",
        "in"
      ],
      [
        "Ġa",
        "ll"
      ],
      [
        "i",
        "nd"
      ],
      [
        "he",
        "n"
      ],
      [
        "u",
        "r"
      ],
      [
        "i",
        "c"
      ],
      [
        "Ġa",
        "t"
      ],
      [
        "ar",
        "t"
      ],
      [
        "he",
        "d"
      ],
      [
        "fu",
        "l"
      ],
      [
        "Ġthe",
        "m"
      ],
      [
        "Ġw",
        "ent"
      ],
      [
        "ig",
        "ht"
      ],
      [
        "u",
        "m"
      ],
      [
        "Ġfriend",
        "s"
      ],
      [
        "ĠT",
        "im"
      ],
      [
        "r",
        "om"
      ],
      [
        "oo",
        "d"
      ],
      [
        "Ġha",
        "ve"
      ],
      [
        "Ġar",
        "ound"
      ],
      [
        "Ġhe",
        "l"
      ],
      [
        "il",
        "ed"
      ],
      [
        "Ġb",
        "ack"
      ],
      [
        "om",
        "et"
      ],
      [
        "am",
        "e"
      ],
      [
        "Ġc",
        "l"
      ],
      [
        "Ġthe",
        "ir"
      ],
      [
        "a",
        "re"
      ],
      [
        "s",
        "s"
      ],
      [
        "Ġd",
        "id"
      ],
      [
        "ou",
        "g"
      ],
      [
        "Ġf",
        "un"
      ],
      [
        "Ġa",
        "re"
      ],
      [
        "Ã",
        "¢"
      ],
      [
        "â",
        "Ĥ"
      ],
      [
        "Ġhel",
        "p"
      ],
      [
        "âĤ",
        "¬"
      ],
      [
        "Ġsm",
        "iled"
      ],
      [
        "Ġloo",
        "ked"
      ],
      [
        "Ġf",
        "e"
      ],
      [
        "ar",
        "k"
      ],
      [
        "u",
        "re"
      ],
      [
        "Ġbo",
        "y"
      ],
      [
        "Ġc",
        "an"
      ],
      [
        "Ġw",
        "ould"
      ],
      [
        "Ġli",
        "ke"
      ],
      [
        "i",
        "ck"
      ],
      [
        "Ġs",
        "omet"
      ],
      [
        "o",
        "ne"
      ],
      [
        "i",
        "ce"
      ],
      [
        "Ġl",
        "e"
      ],
      [
        "Ġst",
        "art"
      ],
      [
        "Ġa",
        "l"
      ],
      [
        "on",
        "g"
      ],
      [
        "el",
        "t"
      ],
      [
        "Ġm",
        "an"
      ],
      [
        "it",
        "ed"
      ],
      [
        "g",
        "et"
      ],
      [
        "r",
        "o"
      ],
      [
        "Ġn",
        "o"
      ],
      [
        "s",
        "ide"
      ],
      [
        "Ġf",
        "elt"
      ],
      [
        "ĠB",
        "en"
      ],
      [
        "Ġex",
        "c"
      ],
      [
        "Ġsomet",
        "hing"
      ],
      [
        "am",
        "ed"
      ],
      [
        "Ġas",
        "ked"
      ],
      [
        "?",
        "\""
      ],
      [
        "Ġ",
        "E"
      ],
      [
        "Ġse",
        "e"
      ],
      [
        "Ġr",
        "o"
      ],
      [
        "re",
        "e"
      ],
      [
        "Ġb",
        "ir"
      ],
      [
        "d",
        "d"
      ],
      [
        "Ġstart",
        "ed"
      ],
      [
        "Ġf",
        "a"
      ],
      [
        "ad",
        "e"
      ],
      [
        "Ġ",
        "One"
      ],
      [
        "Ġm",
        "e"
      ],
      [
        "Ġa",
        "g"
      ],
      [
        "Ġs",
        "c"
      ],
      [
        "get",
        "her"
      ],
      [
        "Ġs",
        "ome"
      ],
      [
        "Ġlo",
        "ved"
      ],
      [
        "k",
        "ing"
      ],
      [
        "a",
        "g"
      ],
      [
        "i",
        "e"
      ],
      [
        "Ġs",
        "ay"
      ],
      [
        "Ġa",
        "way"
      ],
      [
        "Ġn",
        "amed"
      ],
      [
        "Ġw",
        "or"
      ],
      [
        "Ġbir",
        "d"
      ],
      [
        "Ġ",
        "W"
      ],
      [
        "o",
        "p"
      ],
      [
        "ow",
        "n"
      ],
      [
        "b",
        "le"
      ],
      [
        "ing",
        "s"
      ],
      [
        "Ġexc",
        "ited"
      ],
      [
        "Ġm",
        "ake"
      ],
      [
        "pp",
        "ed"
      ],
      [
        "ou",
        "d"
      ],
      [
        "Ġto",
        "gether"
      ],
      [
        "Ġr",
        "an"
      ],
      [
        "ĠT",
        "om"
      ],
      [
        "Y",
        "ou"
      ],
      [
        "Ġm",
        "ade"
      ],
      [
        "Ġwh",
        "at"
      ],
      [
        "Ġc",
        "o"
      ],
      [
        "Ġthe",
        "n"
      ],
      [
        "a",
        "ve"
      ],
      [
        "i",
        "f"
      ],
      [
        "Ġd",
        "ec"
      ],
      [
        "e",
        "p"
      ],
      [
        "Ġc",
        "h"
      ],
      [
        "t",
        "her"
      ],
      [
        "a",
        "s"
      ],
      [
        "Ġto",
        "y"
      ],
      [
        "Ġh",
        "ome"
      ],
      [
        "Ġm",
        "u"
      ],
      [
        "Ġo",
        "ther"
      ],
      [
        "Ġb",
        "r"
      ],
      [
        "Ġf",
        "rom"
      ],
      [
        "ar",
        "ed"
      ],
      [
        "Ġag",
        "ain"
      ],
      [
        "u",
        "e"
      ],
      [
        "Ġf",
        "ound"
      ],
      [
        "Ġwh",
        "o"
      ],
      [
        "all",
        "y"
      ],
      [
        "ou",
        "s"
      ],
      [
        "Ġl",
        "a"
      ],
      [
        "Ġe",
        "very"
      ],
      [
        "e",
        "ll"
      ],
      [
        "Ġp",
        "ut"
      ],
      [
        ",",
        "\""
      ],
      [
        "p",
        "l"
      ],
      [
        "Ġf",
        "l"
      ],
      [
        "Ġo",
        "ne"
      ],
      [
        "id",
        "ed"
      ],
      [
        "Ġsa",
        "d"
      ],
      [
        "Ġw",
        "hen"
      ],
      [
        "Ġc",
        "ar"
      ],
      [
        "Ġdec",
        "ided"
      ],
      [
        "ĠB",
        "ut"
      ],
      [
        "oug",
        "ht"
      ],
      [
        "Ġne",
        "w"
      ],
      [
        "Ġg",
        "et"
      ],
      [
        "Ġ",
        "v"
      ],
      [
        "Ġwa",
        "l"
      ],
      [
        "Ġplay",
        "ing"
      ],
      [
        "Ġp",
        "r"
      ],
      [
        "Ġb",
        "l"
      ],
      [
        "i",
        "le"
      ],
      [
        "Ġh",
        "ug"
      ],
      [
        "Ġth",
        "an"
      ],
      [
        "Ġg",
        "ood"
      ],
      [
        "Ġfe",
        "el"
      ],
      [
        "a",
        "ch"
      ],
      [
        "h",
        "at"
      ],
      [
        "Ġth",
        "ings"
      ],
      [
        "Ġp",
        "ark"
      ],
      [
        "ou",
        "se"
      ],
      [
        "ec",
        "i"
      ],
      [
        "Ġt",
        "ake"
      ],
      [
        "b",
        "b"
      ],
      [
        "Ġo",
        "ld"
      ],
      [
        "Ġ",
        "D"
      ],
      [
        "Ġg",
        "ot"
      ],
      [
        "u",
        "dd"
      ],
      [
        "Ġd",
        "own"
      ],
      [
        "u",
        "st"
      ],
      [
        "Ġb",
        "u"
      ],
      [
        "Ġsay",
        "s"
      ],
      [
        "eci",
        "al"
      ],
      [
        "Ġsp",
        "ecial"
      ],
      [
        "ou",
        "r"
      ],
      [
        "ri",
        "ed"
      ],
      [
        "ar",
        "a"
      ],
      [
        "ĠTim",
        "my"
      ],
      [
        "nd",
        "er"
      ],
      [
        "ĠE",
        "very"
      ],
      [
        "q",
        "u"
      ],
      [
        "Ġli",
        "ked"
      ],
      [
        "Ġl",
        "ot"
      ],
      [
        "Ġa",
        "b"
      ],
      [
        "Ġc",
        "are"
      ],
      [
        "way",
        "s"
      ],
      [
        "udd",
        "en"
      ],
      [
        "it",
        "e"
      ],
      [
        "Ġc",
        "ame"
      ],
      [
        "Ġbe",
        "c"
      ],
      [
        "Ġ",
        "You"
      ],
      [
        "Ġk",
        "n"
      ],
      [
        "Ġin",
        "t"
      ],
      [
        "Ġal",
        "ways"
      ],
      [
        "a",
        "p"
      ],
      [
        "Ġk",
        "ne"
      ],
      [
        "Ġ",
        "ke"
      ],
      [
        "Ġf",
        "ind"
      ],
      [
        "c",
        "hed"
      ],
      [
        "n",
        "y"
      ],
      [
        "udden",
        "ly"
      ],
      [
        "Ġab",
        "out"
      ],
      [
        "Ġg",
        "r"
      ],
      [
        "Ġloo",
        "k"
      ],
      [
        "Ġth",
        "ought"
      ],
      [
        "f",
        "e"
      ],
      [
        "en",
        "ed"
      ],
      [
        "Ġh",
        "o"
      ],
      [
        "Ġt",
        "ree"
      ],
      [
        "ĠJ",
        "o"
      ],
      [
        "g",
        "e"
      ],
      [
        "oo",
        "k"
      ],
      [
        "er",
        "s"
      ],
      [
        "Ġtoo",
        "k"
      ],
      [
        "Ġs",
        "k"
      ],
      [
        "Ġm",
        "y"
      ],
      [
        "Ġg",
        "ra"
      ],
      [
        "is",
        "t"
      ],
      [
        "ll",
        "y"
      ],
      [
        "Ġsc",
        "ared"
      ],
      [
        "is",
        "e"
      ],
      [
        "Ġm",
        "ore"
      ],
      [
        "Ġs",
        "w"
      ],
      [
        "ĠJ",
        "ack"
      ],
      [
        "Ġp",
        "o"
      ],
      [
        "Ġd",
        "ad"
      ],
      [
        "Ġla",
        "ug"
      ],
      [
        "f",
        "ter"
      ],
      [
        "Ġm",
        "o"
      ],
      [
        "L",
        "ily"
      ],
      [
        "Ġt",
        "a"
      ],
      [
        "a",
        "ce"
      ],
      [
        "Ġkne",
        "w"
      ],
      [
        "u",
        "ck"
      ],
      [
        "Ġyou",
        "r"
      ],
      [
        "Ġt",
        "w"
      ],
      [
        "an",
        "t"
      ],
      [
        "Ġex",
        "pl"
      ],
      [
        "Ġp",
        "e"
      ],
      [
        "i",
        "ve"
      ],
      [
        "Ġdo",
        "g"
      ],
      [
        "Ġmu",
        "ch"
      ],
      [
        "Ġ",
        "F"
      ],
      [
        "Ġst",
        "r"
      ],
      [
        "Ġs",
        "un"
      ],
      [
        "Ġout",
        "side"
      ],
      [
        "Ġdid",
        "n"
      ],
      [
        "Ġc",
        "at"
      ],
      [
        "n",
        "a"
      ],
      [
        "Ġ",
        "en"
      ],
      [
        "re",
        "t"
      ],
      [
        "re",
        "at"
      ],
      [
        "is",
        "h"
      ],
      [
        "h",
        "n"
      ],
      [
        "v",
        "en"
      ],
      [
        "v",
        "ent"
      ],
      [
        "c",
        "y"
      ],
      [
        "Ġint",
        "o"
      ],
      [
        "n",
        "ed"
      ],
      [
        "Ġne",
        "ver"
      ],
      [
        "Ġwa",
        "ter"
      ],
      [
        "m",
        "a"
      ],
      [
        "Ġb",
        "all"
      ],
      [
        "The",
        "y"
      ],
      [
        "Ġan",
        "y"
      ],
      [
        "ĠM",
        "om"
      ],
      [
        "Ġt",
        "r"
      ],
      [
        "Ġh",
        "ow"
      ],
      [
        "Ġf",
        "o"
      ],
      [
        "Ġsm",
        "all"
      ],
      [
        "Ġth",
        "is"
      ],
      [
        "ĠS",
        "o"
      ],
      [
        "g",
        "ed"
      ],
      [
        "Ġpr",
        "oud"
      ],
      [
        "Ġcould",
        "n"
      ],
      [
        "Ġkn",
        "ow"
      ],
      [
        "Ġa",
        "d"
      ],
      [
        "n",
        "na"
      ],
      [
        "Ġh",
        "ouse"
      ],
      [
        "Ġo",
        "ver"
      ],
      [
        "p",
        "t"
      ],
      [
        "Ġcl",
        "o"
      ],
      [
        "i",
        "on"
      ],
      [
        "ĠS",
        "ara"
      ],
      [
        "Ġw",
        "ill"
      ],
      [
        "Ġsh",
        "ow"
      ],
      [
        "u",
        "s"
      ],
      [
        "B",
        "ut"
      ],
      [
        "Ġr",
        "un"
      ],
      [
        "Ġle",
        "ar"
      ],
      [
        "Ġo",
        "p"
      ],
      [
        "he",
        "re"
      ],
      [
        "b",
        "y"
      ],
      [
        "Ġj",
        "ust"
      ],
      [
        "Ġof",
        "f"
      ],
      [
        "Ġbe",
        "a"
      ],
      [
        "Ġ",
        "if"
      ],
      [
        "Ġr",
        "a"
      ],
      [
        "Ġc",
        "all"
      ],
      [
        "um",
        "p"
      ],
      [
        "oug",
        "h"
      ],
      [
        "Ġg",
        "ave"
      ],
      [
        "n",
        "ing"
      ],
      [
        "Ġc",
        "a"
      ],
      [
        "Ġu",
        "nt"
      ],
      [
        "Ġwa",
        "t"
      ],
      [
        "Ġhe",
        "ard"
      ],
      [
        "ar",
        "s"
      ],
      [
        "or",
        "t"
      ],
      [
        "Ġl",
        "ong"
      ],
      [
        "Ġto",
        "ld"
      ],
      [
        "Ġ",
        "qu"
      ],
      [
        "il",
        "d"
      ],
      [
        "Ġbea",
        "ut"
      ],
      [
        "Ġunt",
        "il"
      ],
      [
        "Å",
        "ĵ"
      ],
      [
        "Ġin",
        "side"
      ],
      [
        "Ġp",
        "ick"
      ],
      [
        "v",
        "ing"
      ],
      [
        "ur",
        "p"
      ],
      [
        "Ġt",
        "e"
      ],
      [
        "Ġc",
        "om"
      ],
      [
        "an",
        "k"
      ],
      [
        "ot",
        "h"
      ],
      [
        "Ġthan",
        "ked"
      ],
      [
        "Ġe",
        "ach"
      ],
      [
        "u",
        "cy"
      ],
      [
        "ĠS",
        "am"
      ],
      [
        "Ġsk",
        "y"
      ],
      [
        "b",
        "er"
      ],
      [
        "d",
        "y"
      ],
      [
        "Ġ",
        "Ã¢"
      ],
      [
        "Ġo",
        "r"
      ],
      [
        "i",
        "ful"
      ],
      [
        "Ġs",
        "l"
      ],
      [
        "et",
        "ter"
      ],
      [
        "Ġtoy",
        "s"
      ],
      [
        "Ġbe",
        "ar"
      ],
      [
        "Ġbe",
        "st"
      ],
      [
        "Ġbeaut",
        "iful"
      ],
      [
        "i",
        "a"
      ],
      [
        "Ġw",
        "o"
      ],
      [
        "in",
        "k"
      ],
      [
        "Ġlot",
        "s"
      ],
      [
        "Ġha",
        "nd"
      ],
      [
        "a",
        "u"
      ],
      [
        "Ġg",
        "ard"
      ],
      [
        "at",
        "e"
      ],
      [
        "ad",
        "y"
      ],
      [
        "Ġro",
        "om"
      ],
      [
        "Ġgard",
        "en"
      ],
      [
        "s",
        "el"
      ],
      [
        "in",
        "e"
      ],
      [
        "Ġe",
        "at"
      ],
      [
        "o",
        "b"
      ],
      [
        "o",
        "y"
      ],
      [
        "Ġn",
        "ice"
      ],
      [
        "Ġplay",
        "ed"
      ],
      [
        "Ġman",
        "y"
      ],
      [
        "a",
        "x"
      ],
      [
        "Ġd",
        "re"
      ],
      [
        "e",
        "m"
      ],
      [
        "Ġtw",
        "o"
      ],
      [
        "Ġwa",
        "y"
      ],
      [
        "Ġfl",
        "ow"
      ],
      [
        "Ġcall",
        "ed"
      ],
      [
        "ot",
        "her"
      ],
      [
        "c",
        "t"
      ],
      [
        "or",
        "ry"
      ],
      [
        "Ġt",
        "ried"
      ],
      [
        "Ġfa",
        "st"
      ],
      [
        "au",
        "se"
      ],
      [
        "Ġne",
        "ed"
      ],
      [
        "Ġb",
        "y"
      ],
      [
        "Ġe",
        "ven"
      ],
      [
        "Ġhug",
        "ged"
      ],
      [
        "Ġad",
        "vent"
      ],
      [
        "Ġb",
        "ra"
      ],
      [
        "Ġf",
        "am"
      ],
      [
        "Ġsm",
        "ile"
      ],
      [
        "Ġe",
        "nd"
      ],
      [
        "a",
        "ne"
      ],
      [
        "Ġp",
        "ret"
      ],
      [
        "es",
        "s"
      ],
      [
        "im",
        "al"
      ],
      [
        "Ġan",
        "imal"
      ],
      [
        "ĠA",
        "nd"
      ],
      [
        "âĤ¬",
        "â"
      ],
      [
        "t",
        "y"
      ],
      [
        "Ġj",
        "ump"
      ],
      [
        "Ġlaug",
        "hed"
      ],
      [
        "Ġbec",
        "ause"
      ],
      [
        "s",
        "ed"
      ],
      [
        "Ġt",
        "ry"
      ],
      [
        "Ġc",
        "u"
      ],
      [
        "Ġbo",
        "x"
      ],
      [
        "Ġg",
        "l"
      ],
      [
        "W",
        "hen"
      ],
      [
        "Ġb",
        "etter"
      ],
      [
        "M",
        "om"
      ],
      [
        "u",
        "ll"
      ],
      [
        "Ġst",
        "ay"
      ],
      [
        "sel",
        "f"
      ],
      [
        "i",
        "z"
      ],
      [
        "Ġd",
        "on"
      ],
      [
        "le",
        "w"
      ],
      [
        "Ġs",
        "orry"
      ],
      [
        "ar",
        "y"
      ],
      [
        "Ġli",
        "ved"
      ],
      [
        "Ġmom",
        "my"
      ],
      [
        "urp",
        "r"
      ],
      [
        "Ġadvent",
        "ure"
      ],
      [
        "Ġs",
        "urpr"
      ],
      [
        "f",
        "ore"
      ],
      [
        "Ġ",
        "C"
      ],
      [
        "Ġfam",
        "ily"
      ],
      [
        "Ġ",
        "im"
      ],
      [
        "Ġco",
        "l"
      ],
      [
        "Ġso",
        "on"
      ],
      [
        "Ġre",
        "m"
      ],
      [
        "ec",
        "t"
      ],
      [
        "ĠA",
        "nna"
      ],
      [
        "Ġcare",
        "ful"
      ],
      [
        "H",
        "e"
      ],
      [
        "ĠL",
        "ucy"
      ],
      [
        "o",
        "lly"
      ],
      [
        "ĠH",
        "is"
      ],
      [
        "Ġbra",
        "ve"
      ],
      [
        "Ġf",
        "in"
      ],
      [
        "ĠThe",
        "n"
      ],
      [
        "I",
        "t"
      ],
      [
        "Ħ",
        "¢"
      ],
      [
        "Ġc",
        "ome"
      ],
      [
        "um",
        "my"
      ],
      [
        "Ġke",
        "pt"
      ],
      [
        "âĤ¬â",
        "Ħ¢"
      ],
      [
        "f",
        "t"
      ],
      [
        "o",
        "on"
      ],
      [
        "Ġh",
        "ard"
      ],
      [
        "Ġc",
        "le"
      ],
      [
        "Ġbe",
        "fore"
      ],
      [
        "Ġc",
        "he"
      ],
      [
        "Ġk",
        "ind"
      ],
      [
        "Ġexpl",
        "ore"
      ],
      [
        "a",
        "nd"
      ],
      [
        "l",
        "ed"
      ],
      [
        "Ġwa",
        "r"
      ],
      [
        "ĠH",
        "er"
      ],
      [
        "Ġst",
        "ill"
      ],
      [
        "ĠW",
        "e"
      ],
      [
        "in",
        "y"
      ],
      [
        "Ġfeel",
        "ing"
      ],
      [
        "ic",
        "ed"
      ],
      [
        "Ġit",
        "s"
      ],
      [
        "Ġb",
        "oth"
      ],
      [
        "Ġf",
        "ly"
      ],
      [
        "bb",
        "it"
      ],
      [
        "L",
        "et"
      ],
      [
        "T",
        "om"
      ],
      [
        "Ġf",
        "lew"
      ],
      [
        "Ġe",
        "ver"
      ],
      [
        "op",
        "le"
      ],
      [
        "is",
        "ed"
      ],
      [
        "'",
        "m"
      ],
      [
        "Ġf",
        "i"
      ],
      [
        "ĠM",
        "ia"
      ],
      [
        "x",
        "t"
      ],
      [
        "ĠJo",
        "hn"
      ],
      [
        "ig",
        "h"
      ],
      [
        "Ġpl",
        "ace"
      ],
      [
        "Ġra",
        "bbit"
      ],
      [
        "Ġw",
        "ind"
      ],
      [
        "Ġn",
        "ow"
      ],
      [
        "Ġlo",
        "ve"
      ],
      [
        "ur",
        "t"
      ],
      [
        "Ġf",
        "ar"
      ],
      [
        "Ġf",
        "ore"
      ],
      [
        "Ġl",
        "et"
      ],
      [
        "Ġl",
        "oud"
      ],
      [
        "ma",
        "z"
      ],
      [
        "Ġa",
        "maz"
      ],
      [
        "Ġy",
        "e"
      ],
      [
        "ĠM",
        "ax"
      ],
      [
        "t",
        "hing"
      ],
      [
        "is",
        "hed"
      ],
      [
        "g",
        "ry"
      ],
      [
        "Ġe",
        "y"
      ],
      [
        "Ġu",
        "nder"
      ],
      [
        "Ġpe",
        "ople"
      ],
      [
        "Ġwo",
        "nder"
      ],
      [
        "Ġanimal",
        "s"
      ],
      [
        "T",
        "h"
      ],
      [
        "Ġf",
        "r"
      ],
      [
        "Ġf",
        "ish"
      ],
      [
        "Ġd",
        "e"
      ],
      [
        "Ġlear",
        "ned"
      ],
      [
        "i",
        "es"
      ],
      [
        "Ġc",
        "on"
      ],
      [
        "Ġst",
        "o"
      ],
      [
        "oo",
        "l"
      ],
      [
        "Ġbo",
        "at"
      ],
      [
        "Ġwal",
        "ked"
      ],
      [
        "Y",
        "es"
      ],
      [
        "Ġl",
        "ist"
      ],
      [
        "ĠW",
        "hen"
      ],
      [
        "Ġevery",
        "one"
      ],
      [
        "ĠF",
        "rom"
      ],
      [
        "w",
        "n"
      ],
      [
        "Ġnot",
        "iced"
      ],
      [
        "ag",
        "e"
      ],
      [
        "Ġqu",
        "ick"
      ],
      [
        "i",
        "ous"
      ],
      [
        "J",
        "o"
      ],
      [
        "Ġd",
        "is"
      ],
      [
        "Ġp",
        "a"
      ],
      [
        "Ġr",
        "ed"
      ],
      [
        "i",
        "p"
      ],
      [
        "Ġu",
        "n"
      ],
      [
        "g",
        "er"
      ],
      [
        "g",
        "an"
      ],
      [
        "Ġgo",
        "ing"
      ],
      [
        "Ġop",
        "ened"
      ],
      [
        "j",
        "oy"
      ],
      [
        "Ġ",
        "G"
      ],
      [
        "Ġdo",
        "ll"
      ],
      [
        "o",
        "ck"
      ],
      [
        "Ġg",
        "ive"
      ],
      [
        "Ġsa",
        "fe"
      ],
      [
        "he",
        "s"
      ],
      [
        "Ġs",
        "u"
      ],
      [
        "ĠS",
        "uddenly"
      ],
      [
        "an",
        "ge"
      ],
      [
        "Ġwal",
        "king"
      ],
      [
        "Ġbl",
        "ue"
      ],
      [
        "Ġey",
        "es"
      ],
      [
        "S",
        "o"
      ],
      [
        "s",
        "h"
      ],
      [
        "Ġd",
        "el"
      ],
      [
        "Ġth",
        "r"
      ],
      [
        "Ġquick",
        "ly"
      ],
      [
        "a",
        "se"
      ],
      [
        "Ġt",
        "re"
      ],
      [
        "Ġb",
        "ed"
      ],
      [
        "Ġne",
        "xt"
      ],
      [
        "Ġc",
        "ry"
      ],
      [
        "is",
        "y"
      ],
      [
        "Ġstr",
        "ong"
      ],
      [
        "Ġrem",
        "em"
      ],
      [
        "Ġ",
        "ide"
      ],
      [
        "Ġsh",
        "ould"
      ],
      [
        "Ġv",
        "o"
      ],
      [
        "Ġgr",
        "ound"
      ],
      [
        "Ġd",
        "if"
      ],
      [
        "Ġen",
        "joy"
      ],
      [
        "Ġsto",
        "pped"
      ],
      [
        "s",
        "er"
      ],
      [
        "Ġ",
        "P"
      ],
      [
        "Ġd",
        "an"
      ],
      [
        "T",
        "hat"
      ],
      [
        "Ġne",
        "ar"
      ],
      [
        "Ġle",
        "ave"
      ],
      [
        "N",
        "o"
      ],
      [
        "Ġg",
        "reat"
      ],
      [
        "Ġth",
        "ree"
      ]
    ]
  }
}
